00111111001110010001101100100111
00111111001110110100001000110001
00111110011010001101111010110101
00111111000101101101101101011100
00111110011100000000010111001011
00111110100111110111100001111010
00111101111100100011001111111011
00111101100110111111001111111000
00111111011110110101001011011001
00111111000000101111000100000100
00111111001011110100100000001110
00111110101101000111110101111011
00111111001000011100001000010111
00111110100111011001011110001001
00111111001101000001000101000010
00111110111110001110110111100001
00111110110001111101010010110101
00111111000000110000100101100001
00111111011101110100111101101110
00111101101110011010011010001011
00111101110100100010100101110100
00111101111101101001001101100111
00111111001111100101100110110101
00111111010100001001101000101010
00111100001100011011000100101111
00111110010100011111101110100001
00111111011111111110111110011000
00111110111001110111000111000101
00111110000011001000100010001101
00111110011101010101111011001101
00111111001000100100010010001011
00111111000011010110001101011000
00111101101001110100001101110110
00111110101110111011001111000000
00111111011011110010100110111001
00111110101101010010000101010010
00111110011011011001100011110100
00111111000111011111000110011110
00111110000000011110101110000000
00111110000110111110011101101001
00111111010011100011110001010110
00111110100000000110101011110000
00111111011010110101101000111000
00111111000110010011001100111010
00111111001110110111010011000000
00111111001101111001001001101100
00111111000001010100110111100110
00111110010010011011010001111110
00111111010010101100011100111010
00111110100110101000100101011011
00111111000010011000000011111101
00111111001011011101110111010111
00111101000010001100111110101100
00111111001100010110010101001101
00111111000001110010110110001100
00111111011111000010001110111101
00111111001111110110100001010001
00111111011101111000011110000100
00111110100011100000011101110101
00111111001110011101101110000011
00111111000101110111101010100000
00111100011100110111110110110100
00111100110111110110110011111101
00111111011100011100100110000010
00111111011001001101001100011101
00111110110100001110111111111111
00111111010001001011100101011010
00111111011111011111001110110011
00111111011010011101111011001000
00111110111100000111000110100111
00111110100001001011011001001011
00111111000100011111100110111000
00111101100000001100110001001101
00111110100110010001011110110100
00111111001110011100000011010101
00111110010001111000001111110011
00111111001100001111111000101000
00111110110100010010000100010011
00111110011111000101101000110100
00111110101111110111001100000101
00111111010010010011110000100010
00111111000101100001001110000011
00111111011110101000101010111010
00111101100100100101011000110001
00111101111111101111011110110100
00111111000000011100000111101111
00111110110000110110110010000111
00111110111101000100011011110111
00111100100011101101111100001010
00111111000000101111110011001010
00111110001110000001011000111000
00111110100100011000110110110101
00111111001010011001111010010110
00111100110110010110011011101001
00111111010011000101000100110111
00111111001010100011101100000010
00111111001110100000010011101101
00111101001100110000110011011000
00111111010100000011000000010010
00111111001011001100111000000010
00111101100100000110101101101000
00111110110010010110001101000000
00111111011010101100110010001100
00111110000100010010111001100011
00111111010101000110111110101000
00111111010111011001001010011011
00111111000110011100001101000011
00111111010100100011001011000011
00111111011000010011100111011011
00111111010111101001000001111100
00111100100010011110111001101011
00111111011000101010011110110001
00111111011111101000100001010001
00111110111111000000000101001101
00111110111010000111010001110100
00111111000110010000010100101001
00111101010010110001001100011000
00111110000100010001010000111001
00111111000111011101001011010000
00111111011011010101110101010010
00111111000000101011100001000101
00111111000010011010110110001100
00111110100111101111101000010011
00111111011100001011100000111111
00111110011101111101111101001101
00111111001101111010101101001010
00111111001010000101001101011101
00111111011100111101100001010110
00111101010001110001111000111010
00111110010010110001111111100101
00111100101000011100000101111101
00111110000110110000101010000010
00111110001000011011011000111011
00111111000000101011000110110001
00111111001101101111111011100100
00111111001110010011101000111110
00111111011101000011011011001110
00111101110010110011101010111100
00111111011010000011111010000110
00111111001011001001011001011011
00111111010000101001100000111000
00111110111100011100100011111110
00111110111011000110011111100001
00111111000011110001011100001010
00111110011010111000111101001100
00111110000000100001110100011111
00111111001011100101010010111000
00111110011011010100010101100111
00111110101011110110011000010011
00111111010000011111000011010110
00111110010000101110000001110111
00111111010000001000110110110100
00111110010000011100111010111110
00111111001100000010000101000010
00111110111001001100110000001110
00111110000010111100011001111000
00111111001011101011001010000101
00111111010110001010101010111111
00111110001011110001101111011001
00111110010000110101001100100101
00111111010001110110111100001111
00111110110100101110010011010001
00111110110111101110100111011101
00111111010010000001001111100110
00111110101001011010000110100100
00111110000111111100100011011001
00111110101110010101010101110001
00111111010011101001111010000100
00111110011001100110000010000001
00111101100011111111010101110111
00111111001100001101011010010011
00111111010110110011110000101001
00111110111110111100010010001100
00111110111001011001011101011011
00111111010000001101010001110111
00111110110100100100010001001001
00111111000001100010011101010011
00111110111000110100001011000111
00111111011000011110001111011010
00111101100001010000010000100001
00111111001010110010101111100010
00111111001011001010001011001010
00111111010001110101110011110000
00111111001001001101110100100011
00111111011101101101111100100011
00111101101100101001110110000001
00111111000100001000110110110000
00111111000101001010110000110010
00111111000001110000110100001001
00111110010101011100100101110010
00111111001011100110010111001001
00111110000101010100001101111111
00111110000011011010001000010100
00111101100010010010001111001111
00111111001010110110011110110011
00111110101011111010111011110101
00111111010011001001010100111101
00111111010110101111001010100101
00111111010110000000110100100100
00111110001101100100110001010010
00111110110011000111111011010001
00111110011100110101000001111011
00111111010000001000011110101110
00111110110111000110101110110101
00111111000011010101101011011111
00111110101011100011010010000010
00111101010101110001001100001010
00111111001111100100101011111101
00111111000000110110001100101100
00111111010000100001010010000011
00111111000110011111110110011010
00111101110100100101110011001011
00111110101100001010000110010010
00111111001001110101111011001111
00111111010101010100011100101111
00111111011010010000000001011101
00111110101000001111001010001100
00111110011101010011101010011011
00111110101011101100100101000010
00111110000010101110111011011011
00111110011001011101100011110101
00111111001110111010000011011110
00111110110100001100010111010000
00111111011011011101011011010000
00111101111100011111001101010001
00111111011110001101010110100001
00111111011001011111110000010010
00111110101000100111010001100100
00111110010010111011000010000000
00111111001000101000011110011111
00111110111111000101000010010001
00111111001001100111100100111100
00111110000111100110111000111010
00111111001100111110100000111110
00111111001110010111001011010001
00111111010011111110100001011001
00111111000100011000000001001010
00111111000000000011000010010100
00111111011010010111110101110111
00111110101011100111000011011110
00111111001101001010111010110100
00111110100100001000111010111111
00111110101001011110110011100111
00111110010000000101010010110000
00111111001001001000101111010110
00111110011010000010010000011000
00111111010011100000011001110110
00111111010110000011110100100110
00111110111001001111110000011101
00111110110001100011001110110010
00111110100000001101110100100001
00111110101110000100101010100011
00111110111111000010011110111100
00111101111011011000011110101001
00111110100100101001010111000111
00111110111101001001011111111010
00111110010101100000000000110000
00111111011011100010010010100100
00111111001001111100000100100111
00111111010111111110000000000010
00111111011000110000111001100000
00111111010111010011110010101001
00111110110110100011111100111110
00111111000111001101001000110111
00111101000011011111100111001010
00111111001011001110000001000100
00111100010011000110110101111111
00111111001010111011100101001010
00111111000101100010001011111110
00111100001100110101000011010011
00111111011111011000111100111001
00111110111101111100010010000000
00111101111110110001000110111000
00111111001011011011101110101011
00111110010010011000100000100000
00111110110010000011111101001110
00111111001011111001111000011110
00111110100000010100001001110001
00111111010101011000001111101010
00111111010110011011111101010110
00111111011101011100111100000111
00111110011001110010011100110110
00111111001110000110110100101110
00111111010101100010001110011101
00111110001000100111000001011010
00111101111010001101011111010010
00111111001010010110000100010001
00111110011001010000111001100101
00111110001111010011110110111110
00111111000100111100101011011010
00111101111011101100100101101111
00111110011000111010101110001111
00111110100110001101101001111001
00111111000011110011000011111101
00111111011000011100010101100111
00111111011101001101010001010001
00111111011101101010011010001011
00111111011100011101010000110010
00111110110101100111111001101100
00111110100110111000101000001001
00111110110001000101011100010110
00111101011011011110101100000101
00111111001111110000100111110110
00111110100000011001111001011100
00111111001001001100000111010100
00111110001001010000100011000101
00111111010111010011001011110010
00111111001111011110101100101111
00111110110000110100100000010100
00111101010000111110101100101000
00111111001001101100110000001011
00111111001010101111000110000101
00111111011111000100000101111100
00111110100100110101111111100011
00111110100101100011110111000100
00111110001100001011011101010001
00111111001110010001100101101100
00111111011100010110001010011101
00111111010100111110101011001011
00111111001000011000111100000001
00111111010010110001001000110111
00111110111101001001110011100000
00111110010000010000010110110111
00111100111101001000011110110110
00111111000100011010111110110000
00111101101101100111010111111010
00111111000101111111100000010111
00111101001011110100011011101001
00111110011111010111101001100100
00111111001101110101100001011110
00111110110010100010110110111101
00111110001100011000110011110010
00111111001001100010011101101100
00111111000100100111100010110001
00111111011010011111101111001001
00111101111000001001011011100111
00111110110100011111010110100000
00111111001001101000100000100001
00111110110101001111100000001010
00111110001111011010001101111111
00111110010011001110001010110011
00111111011111100111000010101101
00111110001000010111100001100111
00111111010011011110110111011110
00111101110011011001000011100101
00111111000000011011111111100011
00111110101110110100010010111011
00111111011000101000111000010111
00111111011010001100110010110100
00111111011001111111100100000110
00111110110001001001000010001111
00111110011011101111000001111011
00111110111011101101000110111110
00111110111000111001111101101001
00111111011001010101000101100100
00111111011110010110010101111011
00111110111010111001001010010011
00111111000000011001001101110101
00111111010001011110111001101100
00111111010010000100100101011011
00111111010100100100001110011111
00111101111010010101111011011010
00111110010111011111001000001111
00111111000011010001101101011000
00111110011111011100111011001110
00111110100101011100110101111001
00111111011101101100011100011000
00111111000111011001010010000111
00111111011100101000111000100111
00111111001101000110100001100010
00111110010000111011100100111010
00111111011100011000000000101110
00111111011010100000000000101101
00111110011111100100101101011111
00111110110100001011000100111000
00111110101001110001111110001100
00111111001011011000001110000010
00111110101001101001111010101011
00111111011101101111011101101010
00111111011110111100110111010011
00111110101001100101001100011001
00111110001001011010010100111111
00111101111111011010101111110111
00111111000001000001011001110101
00111110010000000001111001000000
00111111010000000101001110010001
00111111001000010101010000001010
00111111001000111001001001100011
00111110010000100111110001001011
00111101110011101111101000010010
00111111000110011000111110011001
00111111010010011101000100010100
00111110110001000010010100110111
00111111011110110000110000011000
00111110001110001001001001000111
00111111000100110011100100010100
00111110110101100011001000101000
00111111001010110111101010001111
00111110100110101101011111000100
00111111000110001001000110110111
00111111011000001100001101000111
00111111000010000110001100111101
00111111010011100100001111001001
00111111011101001101101110110000
00111101110011110011001110101101
00111111010101000011100100100010
00111110101000000001100111100001
00111111010001111111010100111001
00111111000111111011000101100001
00111110100010001010100010010000
00111111010010111011111110111101
00111110101111001010100110100110
00111110001100101110100111110100
00111111011111100001000010000101
00111110000000111111011100010010
00111110100111101101010000101111
00111110110011010000110001101010
00111111011011000101011111010100
00111110010001111010011100000101
00111111001110010111011000101010
00111110111000100100010110011000
00111111001000110011001101100110
00111111001101100110001001101111
00111110011110101110101110101110
00111110110111111100100100100001
00111110010010110100011111011010
00111111000110100101010000110000
00111111010111010111000111111000
00111111011100101000100001111000
00111111010000001011011110101001
00111111000101101111110010101011
00111111011101011100000001010011
00111110101100001100011100110000
00111111000011110011010010111111
00111101001111100000101101101101
00111111010110101011001101001100
00111111000011000010000100010110
00111110110100110101110010010111
00111101100001111011100100011010
00111100111101101101001010100111
00111111000111000001001110001000
00111110101010111010100000100101
00111111000110010010000111010100
00111111001110010110111100011001
00111110010111001010110010000001
00111111000101011001000110111110
00111111011111001010111000001000
00111111000110101110100100111110
00111111001101010110000010000100
00111110011000111110101110111100
00111111000001010101000100100010
00111110110001110110010101001110
00111111010101011100111000111010
00111110000111011000111110011110
00111110011100100001111100010001
00111110001111110011010101010011
00111110100010100011011000110000
00111111001111011010000101110110
00111111011111101001100111100101
00111111000100000001100010011000
00111110110101010011011101000001
00111111011001101001001000110100
00111101101111000011011000111010
00111111010001111101010111001010
00111110100110101101100000110101
00111111001010110100011000100100
00111111001100100101101100000100
00111110111001111110001011000011
00111101100001011010011011111010
00111111010111001101011110001010
00111111000000100000111011111011
00111111000010100010000110100000
00111110000000001011001101111001
00111111000001000111001111111100
00111101101000111101011111010101
00111111010101010100010101111110
00111111010110110000010100100111
00111111011010110100010010011000
00111111001000001101101110001011
00111111000100101001000010001001
00111110101110011000100100111001
00111101010011000000100011111110
00111110001111001000010100101111
00111111010110100000011111100110
00111111001110101000110110110001
00111111010010110011110101101010
00111111010111000010100111000101
00111110111011101011101110001111
00111111000001100011001100101101
00111100101010100110010101110111
00111111000000101001101011010111
00111110100010101100010100111001
00111110100000100100001010001111
00111110111111110000001011110100
00111110100101001111111000001010
00111111010000011011100001100001
00111111000001011011110110011101
00111110101100111100110100000101
00111111000100100001111110010101
00111110100011000001111101000101
00111110101111011011011010100101
00111111000011001011010101111000
00111100001110101100011111101111
00111110101001011000000011110110
00111110110001101111000111000010
00111111000001110100101010011000
00111110101101100011011000010100
00111110100101100111001110100000
00111110110011101100001100111110
00111111000100101011001001110000
00111110101101100000110110111000
00111111011011111101000110110100
00111111011101001000000000010101
00111110110000010100010111110100
00111101111101101100100100100011
00111111001101111100001111001111
00111110111101100100001001111000
00111111010001000110000001100011
00111111001111111111010101111100
00111110011000011010100011110100
00111110101100001011010011110000
00111110100111001111000000111011
00111110001000011000011101010001
00111111010111010101000100001111
00111111010100100101001010110110
00111111001110010010000101100001
00111111000110101101111101100110
00111110110100011000100111000111
00111111001101000000111000100100
00111110010001001110111001100000
00111101110111100100100011010100
00111111001100110111110101000100
00111111010111110011010110011111
00111111011011001101011011110001
00111110100110110000111110000110
00111111000100011001001110010001
00111111000101111101110101101000
00111100101010101011000011100000
00111100000011110000001111101011
00111111000101101111110101010111
00111111011010111101101010111001
00111111010111111111001001100100
00111111010101111000110000010101
00111111010010011001111111000001
00111111001111101000101011010000
00111110111100001000010010001001
00111111000110110111010000111111
00111110111111100011100110000011
00111111011100100011011000001100
00111110100110001000110111011001
00111110101000001011001110101011
00111110010100010100011001010010
00111110000011010010101010111010
00111101100000110100001111011100
00111110011101001011111100111101
00111111000011010001001001001101
00111111011010101000001001101010
00111111011111110111011001000000
00111110100001110011001000100100
00111111001001000010110111001101
00111110110001110001010000100110
00111111000010010101101011010100
00111100101001100011101110000001
00111110100111101010001101101111
00111111000011100000001001111000
00111110100000111100111100010111
00111111010001110011000100001011
00111111010111111101100100100111
00111111010110100100111111001100
00111111011100000001110111001000
00111111010110001110110100100110
00111111000011011100100100010110
00111110101000111110000100101100
00111111001100101000111101101100
00111111001100111110000000001010
00111111001110110110010100101100
00111111010001111101011110000010
00111111011101100111100100011110
00111111011101001010111111101101
00111111010110010010111011100010
00111101000000011001010111110101
00111101010001111111001011111000
00111100001001101110000011100000
00111101011100010010000011101001
00111110100110101111100011001011
00111110011000111001001011010111
00111110101101100000100111111111
00111111001001111010110001011100
00111110101111010001111000011110
00111110101000110000111000010011
00111100001101110111110010111101
00111110100011110111100110011000
00111111011111011100001011001101
00111111011110111010000110111111
00111111011001101110110111010110
00111110101011101010111010010110
00111110010110111110100110000100
00111111001011110011110100100110
00111110100000010110011001011111
00111111011001010101011001011011
00111110111110100111101111111101
00111111001001011000110100001101
00111111010100010010101010110001
00111111010100001100101010011010
00111110110001101101000010010100
00111110000110110000110011001001
00111111000111110000100010111100
00111101101111101110101000101110
00111111011000111100110001101011
00111111011001100110001011010000
00111101011110110001001010111010
00111111000111011010100111011001
00111111001000010010110100111001
00111110000001001010011011000110
00111110111100001101111010100000
00111111011100101010001100110001
00111110101001010101100001111111
00111110010010000101011101101100
00111111000000001001000111011001
00111110001011000000011001110110
00111110110001010101111000101111
00111110011110110111100101110111
00111100101101101100111101000001
00111110010100100100110100111101
00111110110110101001010001000011
00111110101001110100010100110010
00111111010000100110010001100110
00111101100101001010011100111001
00111110101100000000000000110100
00111101100110101010001110101000
00111110011111111001100000011011
00111110101101101111000000100011
00111110111101110000101000000010
00111110100101000000111011001011
00111110010111101111101011011010
00111111011001111111100000101001
00111111011111010100100110010001
00111111000101011011011010110011
00111111001110010110100000000101
00111101110101010011100101101011
00111111000001001000101010001000
00111101101010010110010000101000
00111111010010101010101111010111
00111110010111111010110111110111
00111110011110101110101011001001
00111111001011010100101011000011
00111111001000010010000101100110
00111100110001000100010100110000
00111111010111101011101110001111
00111111001000101111111101001110
00111111010111111000101010111100
00111111010111101111011000101101
00111111010000111100011101111101
00111111011100110111101001011110
00111111010001111100011100111011
00111111010011011101000100110111
00111111010011110100100101010100
00111110010010111000111011011000
00111110100000100101111110100000
00111111010001001100100011110010
00111101011101111011101100111010
00111101111010101111010010001101
00111110000101000100110100011110
00111110111100101101101101100000
00111110000000000101111101010010
00111111011011011011110000100000
00111110011111101001110001110011
00111111000001011101111111111000
00111101100101110010111001011110
00111110001111100000011000011011
00111110100010100100101111000101
00111110101010011001011101000011
00111111011101100101111011001000
00111110100110011100011110111101
00111111010110000001111010000101
00111111001000010110100000110101
00111111011101110001000000001100
00111111011010111110010100000111
00111111000010000001000111111100
00111111010000000101011101110111
00111111011000111001101111111010
00111101100110111101000101000110
00111111010001010100001100001010
00111111010110010110100010001001
00111111001011100010011001011011
00111111001110110101110110111000
00111110110000010101000000111010
00111111011011011010101111010001
00111110111001010001111001010000
00111110100010000000110100100011
00111111010101100100010100110000
00111111001000110110011101010000
00111110110010000000001011010111
00111110110001101011110111011100
00111111000111101100011101101001
00111110011011110010110010110101
00111111001000101110111010111111
00111111011010011000111000000110
00111111010111000101111101011110
00111111010101000111101011110110
00111111000111100101100100010100
00111111000111100101111010110110
00111111001010101101010101001001
00111111001011010100100011110010
00111110101010100011101010001001
00111111000010111001011001100011
00111111011001111101000101100110
00111101100110011011101111110101
00111111011101111111101111001101
00111110111000101000111000100111
00111100111000011100001111100001
00111110101010111010111011011010
00111101101000110000010100111010
00111111001110000011101101110011
00111111000101110001011111000001
00111110101001110100010111101011
00111111000101010011111011011001
00111110011001000000110110110110
00111101110011000111101011000110
00111110111100101000011001011010
00111110101101000000110100110001
00111111000000111000101000110010
00111111000001101110100011111011
00111110100010101011101001101111
00111101000101011010001011111011
00111101100111100111010010110111
00111111010010100110000100111110
00111111000000010000100101001110
00111111010110011111111001100000
00111111001010000001111000101101
00111110101001111000011110010100
00111110110000001001110000110101
00111110000001111001110110110100
00111111010011001001001000000000
00111110111000010111011011011010
00111110101111011101100010001111
00111110111001101001101011011011
00111111010101001110000100110001
00111110110001000001110010000111
00111110111101000010011111011010
00111110001110000001000110011100
00111111001001111000110100111000
00111111000100000011111000001001
00111111000100101001101111001111
00111100001100111111100000000110
00111110101000010001010100101000
00111111011111010011100001011011
00111111011001101011111111101110
00111111001011110110011111100100
00111111000111011111001010101000
00111111000010101010111001011011
00111100011101010110100001010001
00111110110010000101001001100011
00111110101001001001000100101101
00111111011001111110100000100110
00111111000100011111011001011011
00111111000011110110101001001011
00111110101111010111100001101100
00111111001110000101010101010100
00111111010110001100011101111010
00111110001001110100111100001110
00111111001000011100101101010111
00111110100101000110101011101110
00111111000000000001001111101110
00111111010010111101011111110100
00111110110001011001011011000111
00111111010101011001110011000001
00111101100001111110010110011111
00111110111111001100111010001011
00111110000111011110001001010001
00111101110010100010111100000100
00111110001111100001101111100110
00111110110001011010101101000111
00111111001111001110100100110010
00111111010011100001101110001111
00111101100010110101010011110001
00111110000001010000011011011101
00111110000011011001000001100000
00111011110001101101010101111101
00111111001110011010001110110101
00111111000011010101101110110001
00111111000101110000010001011100
00111110000000100111001000000001
00111101110011110110110010110100
00111101111000000100010010100001
00111101110100101100001100000111
00111111001000110110110110101111
00111111001010000011001001001011
00111110101110101101000101000001
00111110111010101010110101001001
00111110111101111010110100011011
00111110010110110001100100101011
00111110011001111100111111001010
00111111000100101000010011100111
00111101010100010111110110011011
00111111001101010110000000000111
00111110101010101000010010110001
00111110000010101110001000101100
00111111001101111110110010001101
00111100111001100011001000010100
00111111010111000110001110111011
00111111000111101000111000111011
00111111010111110010100110001101
00111111011101101000010100101100
00111111000101000100110100111100
00111111010001000100011100011001
00111111010010001001011100110010
00111111011001000111000000110101
00111110100101101110110000100100
00111110110000000111100011011001
00111111000011011111111000111100
00111110101111011111110011001100
00111110100011011101100011001100
00111110011101011111000100010011
00111110100001101111011110000000
00111111011011000101111010001101
00111111010010011111101100110000
00111111011011010011101110110101
00111111010100011011011100101111
00111110101101100000111101010000
00111110101101011100110011100010
00111111010101100000111111010100
00111110111011110100001000010000
00111111011011101111011010011100
00111110101100101000110010100001
00111110100101000001100110001100
00111111000011100001001000100101
00111110111111010111011100101010
00111110101110101011101111010001
00111101111110011101010011000011
00111110101000110111111110000100
00111101110000111111000011010110
00111111010110001001000111111010
00111110110101111101011101011111
00111111011011101110110110010011
00111110100001110100111101011011
00111111000001011001111111110001
00111110110110011110111111110001
00111111000011111011010101000110
00111111010001110100010111101101
00111110100101010001010000000010
00111111010110001010001001010111
00111110111110000101000011111010
00111110111110110100011011110000
00111110110110001010010101100011
00111110000000110011001100010000
00111111011101001010111011011101
00111111001111111001111001111011
00111111011001111101000001001110
00111111001010111101101001011010
00111110101110110100011000100110
00111111011100111100100110010111
00111110011000001000010110000111
00111111001000011111011001110001
00111111011101011010011111011011
00111111011011100001100111001111
00111110110100110111010111000111
00111101110100101011011110011100
00111111010000110110011000100011
00111111001010001000111000111001
00111111011111001000101001100100
00111111001101110100000110011101
00111110111100111001000110010101
00111110000000001001110101100000
00111111011011000110111110101001
00111111000111001010011100000010
00111101000010110000001000000001
00111110000010100100110101111010
00111110010000100101010000000100
00111111011000111001001101000000
00111111001000010110111110001010
00111101111100110001110101011000
00111110110001100100111100000001
00111100101110000111011010001001
00111110100001101000001001111010
00111110010000010101111100101101
00111111010000110101001011101000
00111111001111111110100000001100
00111110111110011000111011111100
00111111000011010100101001100000
00111111000000001000011011100101
00111110100000011110011010101001
00111111011000001100111000100110
00111111001110111011011101000111
00111110100100010111011000110101
00111110111000001111010111111010
00111111001111011111001010101100
00111111010100010100100101101110
00111111000001011001000011111011
00111111000110000100011011010010
00111110100110000010000101111111
00111110100100110000000101000010
00111111000101101100010000000111
00111110111001100001001010110011
00111111000010110011001011101100
00111111001011101101111011100110
00111111010001101000100101011101
00111111011010111010000001000111
00111110111111000100110000001111
00111111000010011101010110001111