00111101110010000001100011101110
00111110000001001100001000011010
00111111010101011111110110101100
00111110110100111101001011001000
00111111000011010100101111011010
00111110111100100111000001010100
00111110110011111011101101100011
00111100001000000101110001100000
00111110011011001101001101111010
00111110111011110000010111100110
00111110111110001111000111101001
00111110011110111100001000000001
00111110100000111100001100010011
00111110000000001001001000100111
00111110100000100101110111100101
00111110011101010010100000001110
00111110010111111111101011100101
00111110010010011101001100010110
00111111011100000001111001110010
00111110100001101101101101000101
00111111001110101111110100101101
00111110001000011011011100011101
00111111001100101011000101010000
00111111001110001100110111001100
00111111001101110001111011110110
00111110101011111111000101001001
00111110001001011010100111011000
00111111001000001000101011001101
00111110011010101101011110111011
00111111001000100111100010000111
00111111011100101011101001001111
00111111011101110111110110000101
00111110000101010111000010011100
00111111000100010111111011001111
00111110011010100011011111110101
00111111000100110110100011000111
00111100100110110100010000001011
00111110001111110011010000010001
00111110100001111101111110111100
00111101000111011101011001100011
00111110000011001111011010110000
00111110110101101111111101111101
00111111010001110000000100011101
00111110111101010101110011110101
00111110011100101110001011000000
00111111000111101001001111110010
00111111000010110101111110110110
00111111011001011000010100100101
00111111001010010111000110111011
00111111010000101111100110000111
00111111011011111100111110000101
00111110111011111100000111011111
00111111000000101110111101110001
00111110110101110111110001110011
00111111000101010101001000111011
00111110100000110111100111110010
00111111010000000100111011111101
00111111000110011100111101110011
00111110101000000100000001101000
00111100010000001000001000110000
00111111001101011010101010000101
00111111000010000110000101000011
00111110111001110110011010110110
00111110111000001010110111101111
00111111000100010010010000100110
00111101101011110110000100110001
00111111011011100000111011001101
00111101101001110111000001010111
00111110110010010000010011101000
00111111011100111001101110001010
00111111010111010011110101001011
00111111010101000101000011010100
00111111000100101001111000101110
00111111000110010110101110001001
00111110110101000001101100010010
00111111000011011100110100000100
00111110111001011000100101101110
00111111011000110011001110000101
00111111010010011111011001010110
00111110100000110111010110011000
00111101110011001011100100110010
00111111000010110100101001001000
00111111011110101100110000100001
00111111000010100011100110111100
00111110111010000011100011111110
00111111000111101001101010001100
00111111001010110110101000110101
00111110100001110011011010100001
00111110011111001101001011001110
00111101001110010101101111111101
00111110101010100110100111001011
00111110010000011101110111010011
00111110110000010111110000010000
00111110100010000000000001010111
00111110011111001101110100011000
00111110010100011000001000010111
00111111001010110111001011000111
00111110011010110111001001001011
00111111011111001111010001001001
00111110110001100001000010110111
00111110100111010011101000010010
00111110101111011000101100000010
00111100110000011111111011010000
00111110100011010010110001001110
00111101010101101011101011010110
00111101010010001111110011000011
00111110100110010001101111100000
00111110111111011000001110011010
00111110110110110000001100100001
00111110001101010001100110111000
00111110100010011110010101010010
00111101111001011111111010111100
00111110000010011001010001110111
00111111011100011010011010111010
00111110000110110001000100010001
00111101010110111001100100000100
00111110101111001111000111110111
00111111010100111110101101101000
00111111000000101011100111000011
00111011100010010010010111000111
00111110111110101101010111011100
00111111000110000001011110001000
00111110101010111110100001010001
00111110010010110000101001000001
00111110100001110000111010011100
00111110100010111110000100010000
00111111010000000100001100001101
00111110100001001100101000000100
00111111011010100101000101011000
00111110101110100111011000010001
00111111011100101111000101000111
00111110100100000000101100110011
00111111000001001011001000011110
00111110101101001101110000010000
00111111000001111101001010110000
00111110111000000000100100001111
00111101111001100001110011110101
00111110001100000101000110001011
00111111000100110101010001101110
00111110101000001110111101011101
00111111010010000101011101011010
00111111010100110000101011101111
00111111010111001100001001010000
00111111001010100111110010001000
00111110100001001011100110010000
00111111011011111111011100100011
00111110111100111100011110011000
00111110111011101101101011010110
00111110101100001010101010101001
00111110101000001111000101111100
00111111011111100110001111000110
00111111011001010111000100110001
00111110011000111010100100010011
00111111010101011011101011010100
00111111001011001010010010111011
00111111001000010101111010110100
00111111001110110110000010000000
00111111010011111001010100101110
00111111001000100101101101101000
00111110100011111000010000111111
00111111001101010110100110111001
00111110100111000010111000000011
00111110011100001001000001101100
00111111000110011011110100100010
00111110100000010000111000110001
00111110011111010010100110000111
00111111000100011101111000111111
00111110111100110110010110111000
00111111001101100111010110000000
00111111010111101011010011100101
00111111011110101000010001111000
00111110111101111100100000001110
00111111011111011001111111110101
00111110100001101000100101000101
00111110100101100001110100011011
00111101111010110001101011100110
00111110000111000110011010100111
00111111011100001011111111011100
00111111010001110011111100101111
00111111000010010100110011010110
00111100101001110111101001010111
00111111000110111001010000111001
00111111000011111111111110011101
00111110011010010010100100111100
00111111000010010110101110010000
00111111011000010101010111110100
00111111000110000010011110001001
00111110100000100101111011100110
00111111000000010011111011011010
00111111001111001101000101010001
00111101110010111011111001011111
00111101110111001111111000000010
00111111001000100100100100100011
00111111011101000110101111100011
00111110100011101010101010111110
00111111001010011010100000000111
00111110000110010111001001111011
00111110110101101110011100101111
00111111000101010100110111010000
00111110101101010010111010001100
00111110100010110101100011110010
00111110111101110001010101010110
00111110011001010111011010110100
00111111010001101101111101100011
00111111011111100000110010111001
00111111000011010001011111010101
00111111000110110001101001000001
00111110110110001101000011011001
00111110110001011011100110101000
00111111010111110100101111001100
00111110100010000000001100101001
00111111011110110111010010001110
00111110101011101100101111011111
00111111000110010111000001111010
00111110001010010011111001001010
00111110011101000001011110101000
00111100000011010011101011010100
00111111000001010010011000111011
00111110001111100001001100010000
00111101111001111001101100110100
00111110110111110011000101110100
00111101000110101010010101011000
00111111000011101001110010001100
00111111000101000010000001100111
00111111011100010110010111010110
00111111011011011110101011011110
00111111010110001001110110111001
00111111010101111111100111111000
00111111011111000110011100000111
00111110010110011100001001010001
00111111000011111110110011101000
00111111010101010000001000000110
00111111001011010010001111001111
00111100010011110010001001000110
00111111000110011111000000101111
00111111000100110101101100100000
00111101101101000110101100010101
00111110001101000110010101011111
00111111000111100110000111011001
00111111011101010000110111000111
00111111001101010010001110010001
00111111000011011000011001000011
00111111000000110111100110000101
00111111011111000010010110111000
00111111001010111000110110011111
00111111011110110000110100101011
00111110101000010011111000100010
00111111011111100011000101011001
00111111011101011011110110101100
00111110011111101110011111011111
00111111001111010011000001010111
00111110111100011001111100001110
00111111001010000010000000111011
00111111001100000100101101101000
00111101010000000100000000101010
00111111010001000101110101100111
00111110010100001101001010011110
00111111000101011010010010010111
00111110000111001011011111111000
00111101110100001000110011111010
00111111000001010111010100011111
00111111000100011111000010001001
00111111001011010100100110101011
00111111010111000110001001010101
00111111000110000110001001101010
00111111010111110011110000011100
00111110111000111010010010100101
00111111011000101000010110100011
00111111001011001111000110101000
00111111010001000101001100011000
00111111001011100101001110100000
00111111011100110110111000101000
00111110010010111000110100111101
00111111001001001111110101111001
00111111001011011011001011111000
00111111001110111101111100001101
00111111001011001110100000101011
00111110101101011110011000001010
00111111001110000000010100001100
00111111000111011101000001001011
00111111000101110010101101100110
00111110101010100011110111110010
00111111000011101011010001001100
00111110101110001100010100100100
00111101100110101100000011001110
00111111000101011001011100100100
00111101100101111011000110101101
00111111010011010100101110001000
00111110000011111010110111011000
00111111010110011100010001001101
00111111000001010110111010111100
00111110101100101100000000101011
00111111011101100001000111010000
00111110111000000000000011001011
00111111001010010110111010010000
00111011101001111000111100001001
00111101111101011001100010111100
00111111011011100110101010111011
00111111001011001110000100010100
00111111000000111010100010110000
00111111000000111010100101011110
00111110100110011011011100111000
00111110110101010001100101101110
00111111001010011000100110000100
00111111001100010101001010111100
00111111010100010111100000010001
00111100101010100101100111111111
00111111001000101010110001101000
00111110100101001111000001111110
00111110010011100000110000010001
00111110011110101000101010000100
00111110100011011000011111101101
00111111010100111010100101110111
00111110001011110101100100001011
00111110111101000000011111001111
00111110010101111110000101110010
00111110100001010111011100010000
00111111010101101010010000011100
00111101100100011100100001101011
00111111010011110101010111110010
00111101100011010010110001100101
00111110011001111110110111001101
00111111010000010110000010101110
00111110101011000101001111101101
00111110010100011101011101100110
00111111011100011001101001100001
00111111011001000110100011111101
00111101000011011011010001100010
00111110100001111100101101101101
00111110110000100000000011100100
00111111001110101100011000011000
00111110001001010111010110110110
00111110001000111011110010110101
00111110111011011001110011011101
00111111000001110110011111111100
00111110110111001101010100100011
00111111000000101010011011011111
00111111001001010011011111011101
00111111010010101000111010001000
00111101011110110101101010101010
00111111001010111001111000010100
00111110001000000111110000011100
00111110010001010111000010110010
00111111001100110011001101011100
00111110101111011001100010111011
00111110110110011100011101111110
00111101100101010011000000001110
00111111010111110111100001110000
00111110110111010000001001010100
00111111011000101000000111000010
00111110110001110011011010101100
00111110011011001001011011000101
00111111000101011000000000011010
00111110100010110111111110110000
00111111010001010001110010111000
00111101111111100101000110001111
00111111010011110011010010110101
00111110110100101111010101011000
00111111010110010001011010100110
00111111001010101111111010101111
00111111010001011111110101110000
00111111011110000110000000000111
00111111010010111001000111101101
00111110101101111100101011001100
00111110011010011100111111111001
00111111000100010101000111101000
00111110101000110101000010000011
00111101011000010001010110001010
00111100110010000001000011010101
00111111010111101110000110101011
00111111011110101010010111011011
00111111011010011010000111011110
00111110101110110001001001010101
00111110101010110011011000010101
00111110100000110010100011000100
00111110110010011000000010100010
00111111001011011010010111110001
00111111000101011101111100001110
00111110000001000101011111010000
00111101011001001001010010011111
00111110111100101101010011000011
00111111000011100010111111101101
00111111001001110110001101011110
00111101010110010111110111000100
00111110000100110000000001100100
00111110111111000000000110100000
00111101100010001101101011100111
00111101010000110110100111110011
00111111000101011011000110110010
00111111001000100101101100110000
00111111000011010101001100100111
00111111011111101100010000011011
00111110101111001111000101010111
00111111001111001011100100100010
00111111011100110101011100100111
00111111001000101011101111101100
00111110010100110111000000100011
00111101011011110100100001001000
00111110101101001100110100111000
00111110111011010100010010011001
00111110000000101000010101101010
00111111011011100010010000101111
00111110100000100101111101110101
00111110101001101011101110100111
00111110111011101001110000001100
00111110100011010001001000100001
00111111001010110011101010001100
00111101001010101001111010000101
00111110000010011000011000100100
00111111010110010100111110011100
00111111000110010101010101011111
00111111000000111110011110001010
00111100110101101111101110000011
00111111001111111000110000011010
00111111000011011000100001010011
00111111000001010001111101000001
00111101001100001111011111010100
00111111010101110010010111011011
00111111010111011000101101111110
00111111000000110101010001101100
00111111011100101000111110100000
00111111010110111011100100010001
00111111000100100101101001111100
00111101000101100011011010001000
00111111000110001011110110101110
00111110110101011100001100011001
00111101011000100011111101101110
00111111010111111011110100001001
00111110111110010001001111011111
00111111011100011111000111100111
00111011001110001001010011000000
00111101111100110000110100110011
00111010001111101111011110011001
00111111010101110111100001110001
00111111011101000001000011000001
00111111000010011001110101101011
00111111001010001101101000101111
00111110010110011001110001111011
00111111000100111111100100000000
00111111011101100011010011000010
00111110101010011110100010011100
00111110101100101011110011111101
00111111010110001010111100011010
00111110100010010011110111110101
00111110110011001000101100001000
00111111010101110010100011101101
00111110111010011001110011110110
00111110100011101001101001110110
00111101111000101110101111111010
00111110011101011100110001010111
00111110000000111010010100000111
00111110001100101011011101000101
00111110110001100000000011101000
00111111011100011010010101110001
00111111001101001100011011100100
00111111011010001000110001110001
00111101011000111010101111101001
00111110001101110101110111101111
00111110101011001010001010001001
00111111011101010000110111110101
00111110110101000110001011111100
00111111001110111101111111101111
00111111000011000111010011110001
00111110000001101010010101100100
00111111011110000100001001001111
00111111011110000111010000001100
00111111011011111101011000110000
00111111011010010110101111011101
00111111001010100000110110010101
00111111000011001011010110001010
00111111010100110001001110001110
00111110001100001000111001100110
00111111010100110011110011110100
00111101111000111011001010100000
00111110111000110011111010001110
00111110000001010101110010010111
00111110101101001100111111001000
00111111010010000010100000110101
00111111010101101010011011000011
00111110011000111111001001110100
00111110000011010101000111001111
00111111010011101101001010111010
00111010010010110111010111011000
00111101010000100110111000110000
00111110111011100011100010111001
00111110101110010010001001110000
00111111000111010110110011001010
00111111001100111000100010011001
00111110000011010110011001110010
00111111000010101110000011110001
00111110000001100010011000110101
00111100110001000110111100111001
00111111010101011000000100110110
00111111000011110101011101110100
00111111010000011010010111101100
00111111001100110101010011011001
00111111011101000101111011101101
00111111010010000101000011111001
00111111001111100111110111111111
00111111010111001101001100010100
00111111001101000011000101001111
00111110001111110110011101011111
00111111001101111110001001101010
00111101000000001001000111110000
00111111001110101101101001000011
00111011010101010111101000111100
00111111001100110111001100101110
00111111001101001111011000100011
00111111011110001101111100111100
00111111010010001011011100111110
00111111010111100101101001100111
00111110110110101101011100010110
00111110000101111110001110100100
00111110100011111101100100100010
00111111010011000110101001010010
00111111011011111101110110011011
00111110000111001111001100111001
00111110001011110111010001100010
00111110111001101000110100001010
00111101000011101001111000001100
00111111011111010001110111111100
00111110101100111110110011000110
00111100110011000110000101010001
00111110010110100000111101010010
00111111011110001101110001001001
00111110110101101100111001000100
00111111000100000110000110010001
00111110011110100000011001101110
00111111001110110100000111001011
00111110111000101010110100010100
00111110100011001100110110111100
00111111010011011000100010101100
00111111010111011001000101001111
00111111001011011111011001110100
00111110100111011111101100011101
00111111011001111001001011111011
00111111001010100010111110001100
00111110110110101101110100010101
00111111010000011100011110101111
00111111011110001000100010110111
00111111011101000011000010100000
00111110101011111010001000110100
00111110100011100111111010111000
00111101100000001011011100111101
00111111010110111000111101001110
00111111000100101100100101010001
00111111001110001110010101010110
00111110101011010010101010100111
00111110010111100110101100100010
00111110101011001001000011110010
00111111011100100110001010110010
00111110101011100111011101000010
00111111010001101101011110110010
00111011101000010100110010101100
00111100111110111101010011001111
00111101101010001010000101001001
00111110111110101100110100110101
00111111011001101100111100111111
00111111000000001000001011000000
00111011100011111000000001001110
00111111000110110001110011010101
00111111001000111010110011111000
00111111011100010100110100110101
00111110110110110110110001100011
00111110100111110101001001001100
00111101100100000011100110000010
00111110100110000111011001110010
00111110101000011000101100100011
00111111011011001000110110111001
00111110110100111011001100011101
00111111000010100001001101000111
00111110111100110110010101110000
00111111001010001110011010101110
00111111000010110100001010110110
00111111010101011001011110001111
00111111010100101010000000001111
00111111010100001101010110101100
00111110101101111010100010111000
00111111001111000110100101100001
00111110101011100100100011011111
00111101101000010101100001001110
00111110111111111010010000100101
00111111011010001101111010000000
00111111011001011011100010011100
00111111000010000011111011100011
00111111000100000011100110100000
00111111010111001100101011001000
00111111011111011110010111010111
00111110111001111100110110011010
00111111001101100000011110111001
00111110100000011001001010100110
00111111001011101100001101100100
00111110101101001111010011001010
00111111011100111111001001101000
00111111000001001110110010111111
00111101111110001010000011000010
00111111000010100000010111110110
00111111000001111110000110111000
00111111000110110101111001010110
00111111000110010010110001001010
00111111010010001100010011110101
00111111000110111101111000010011
00111111001100001111100001001101
00111110000100111100010001010010
00111110000101111010111000100111
00111110110100110111111101000101
00111110101111100101001100011100
00111101001100111001010111111110
00111111000111010011110000111011
00111110110001000010010000111101
00111110111001100001100000110100
00111110001001001101011011000101
00111111001001011101101000001010
00111110000110111011001100100010
00111110100011011000001000010110
00111111011110110110111000100011
00111111001011111010101101000101
00111111011100000110111110111101
00111110111010110000111100011011
00111111000110011101001100011100
00111111000011111010000101000111
00111111011010000100000101010101
00111111010100101010001110110101
00111111011010110110101011100011
00111110101110111101111001100100
00111111000101111111000110011010
00111111011101001001010111101011
00111110001010001110111010010110
00111110001110001111101100101010
00111110111101110100001000111000
00111110011111001011100101010111
00111111001000101111000110011101
00111111001100001111111110011001
00111111011010011110111010101001
00111110111001100101110100101100
00111111010001111000011111010101
00111101110001001001100010001000
00111110111010111101111110001011
00111101100100101011110100010010
00111101100101000100110100011100
00111110111110100111000000110110
00111110010001101001101111101011
00111110000000011101110100011111
00111111010110011011000010011101
00111111000011110110010110101010
00111101100101000110000001111100
00111111001000110100100110010111
00111101000111100010101100001000
00111101011001110111110111000101
00111111000101111000100011101100
00111110010111010011011100101011
00111110010101010110100110010101
00111110000001010000101111011110
00111111001110110111111010001010
00111101010010100100100100110111
00111110000111110000011110101110
00111111000111110010010010011111
00111111010101101010001011000101
00111111011111001110000111110010
00111110101000010001110011011110
00111111000001100100010101110010
00111110000001111101101101110110
00111111011101001000110011101111
00111110101101010101000011110111
00111110000001101101001011110110
00111110100100000101110101010011
00111110101010100101000111010011
00111111011100000010000111010110
00111110101110011011000000010101
00111110001011001000100101010101
00111110110111111110100011000111
00111110111110000000111001101011
00111110010111001000110010110001
00111111011100101001110101101110
00111110011110011001001001100100
00111111011000001110100000001110
00111100100011100011101000001001
00111110110110011110010000110101
00111110010101100100111010001010
00111111000110010111101001110100
00111101110101111111000000100111
00111110011111011100110100011111
00111110111001111110100100110111
00111111011111011000111011111101
00111111001011110011011011000010
00111110111111001111100000010100
00111111011000101111001000001001
00111111010101001100000110011110
00111101000110111000000001001001
00111111001010100110000011000110
00111101110111101010100011011110
00111111010001110100101111011000
00111110111001010010110000001000
00111111011111000011001111100111
00111110101001001011011110010101
00111111010010010000001011001101
00111110000110110010101001000101
00111111010111111101011010111110
00111100111101110010000001010111
00111111011111000101110110000110
00111111011011011000110110010001
00111011101011111010000111110101
00111110001001000000001101110100
00111110110111001001100011110010
00111111011011000100010110110010
00111101101011011111111101111000
00111111011110100001100110011110
00111110011111000100010110001110
00111111001011010011111111000110
00111111000110101111100110100110
00111111000000101011100000010001
00111111000001110010001111010110
00111111011100110110110110100101
00111111001111111010010011111110
00111111011111011000111011001101
00111111000010000101011010101001
00111111000101100111001010111100
00111110111000101111111110100010
00111110101111010000001000101110
00111110111110110000010000000000
00111111000101001001010100011110
00111110100000000111101110011110
00111111011011001001010000010010
00111111001110001110000010100011
00111110110010001101000011110011
00111111000011000001111111000001
00111111011011000011011000000100
00111110010100100111110001001110
00111111011110001111011110010010
00111101101110000001101110000000
00111111010101011110011100001001
00111111010000101111010101101000
00111110010010111011101110110111
00111111000011010100101001001110
00111111000101011011001111011111
00111110110110110101111110001101
00111111011010110000111100000100
00111111010100100011011111101110
00111110110001001010111101110001
00111110011110111011100000000110
00111110111110101110111100111010
00111111001101111101110001110110
00111111000011101101010011100000
00111111010101110010110011011001
00111111000001110000011111011011
00111111010010011011101000000000
00111110100010010101111000011001
00111110110110011111011110011010
00111111011011011111111101111110
00111110010100100000110100011000
00111111010111110111100000110001
00111110110000000010110111011111
00111110101000001011010001001011
00111110101000010010100101010111
00111110011010011000101111010011
00111110000010000111101111011100
00111110000101100101111001011011
00111110001011101100100111010110
00111110111100010011010101111000
00111101011010011000000001100000
00111110111100110100010110001111
00111101100010100110101001010000
00111111001010000000000111011101
00111110010000111110101110001011
00111111011100111011011101001111
00111110100010100100100110110010
00111110101110010010011111011011
00111110111000101010010110111001
00111110110000011101100010111011
00111111010101011010101011001101
00111110100100100111000001011011
00111111010110001100110000010010
00111101110010111011101000011111
00111111000000101100101100111100
00111111011001001100111001100110
00111111010100101110100111110110
00111110001010100101011100100100
00111110110001101010111011001100
00111111001110101101100001110010
00111111011110001101000100010111
00111110000110010000111001101110
00111111000100111010110110000110
00111111010111010000000010000010
00111111000010011101111100000010
00111101101100010101010000100011
00111111001011110000110011010000
00111111010010001110101100110000
00111111001100111010110110000110
00111111000111100010110111111001
00111111010110100101010111111011
00111101100111011010001001011111
00111111010100101000111111000011
00111111011011110111111110111011
00111101101111001001101100111100
00111101101111111111001000101011
00111110111000101101000101101001
00111111010101111000010100011001
00111111010011100111000010100101
00111111001011110001101001000010
00111111000101100010011010010010
00111111011010101011001011011011
00111111001010000100100100000010
00111111010100011010100111101000
00111110000100001110100110101101
00111111000010110001110001110110
00111111000111000100110010011100
00111111010100101011101010010010
00111101000001011100101010000001
00111101111111100111000101100110
00111110101011110001100101000001
00111110110011000110110101011010
00111111000001001110100100001100
00111110000010101000110001111000
00111111001000111111110010100101
00111110001011010011101101111010
00111101001010100110000100101100
00111110111000111110011101100100
00111111000010100111110111101010
00111111001111110111110100100110
00111111011111001010011110110011
00111111011110001001000011001001
00111110001000010101100111001111
00111110100110100010010110011011
00111101010111100010010000101111
00111101111001000011011111111010
00111111011000101111100010100000
00111101110111010110100111100001
00111101001111111100111111001010
00111110001001111111010000110001
00111111000100010001111000000111
00111110000010011011100001001100
00111111001110010010100111001000
00111111000000001000011110101010
00111110101110010100010001110010
00111111011111000100011111000001
00111110111110100010111111111101
00111101100000101110111000001011
00111101000011001000101110101111
00111100110000110000101101000100
00111111010011111100111100110001
00111111000110011101010010101101
00111111001011011110000011000011
00111110110110100000010000010010
00111111011010000011011101110000
00111111010010010011101101110001
00111110010111001001110111100110
00111110000101010011100011100101
00111110110101001110100000111100
00111111000100000000111111100100
00111101000110010111011101100111
00111111001101110111101011001010
00111111010011110101010000011000
00111111010000101010001111100110
00111111011001101111110011000110
00111110001010111111001111001101
00111111011101111101001101001001
00111111001011111100100011011110
00111111010010101010010011110000
00111111010111111100111010010110
00111110101010001010110101110101
00111110101011101001100110001111
00111111001111100001011001001100
00111111001011100010000000110001
00111111001001110011111101011101
00111110101110001011111100000101
00111111001010010110010000100111
00111111001100010101100001110001
00111110100101011101101001000001
00111111000100001011010011011001
00111111011101000001100000111110
00111111010101100111100011001011
00111101111110111111010100101111
00111111010111111110111000011010
00111111001010101010010111010100
00111101000110010010110110111110
00111111001100101011100011100010
00111110100101111101011000100001
00111110010011001011001101110111
00111111000011011100011010001010
00111111001000010111010000110010
00111111010111000011000100101001
00111110001011110101000011001100
00111110101000000101100110111111
00111111011011100100111001011001
00111111000101001010101101100111
00111111001010100001111010000101
00111110111011001001101111001001
00111101001011010111110011100001
00111110101000001111110000010110
00111111000111101110010111101000
00111110100000110100001110101010
00111111011101001010010011110010
00111111000111000100011111011001
00111110000100100101101101100001
00111111001101111001001011001101
00111101001010101001010110100111
00111111010110111111011001110100
00111110010011000100110001101001
00111111001101000000000111010111
00111111010001110101011101100000